000 000 000 000 000 000 000 000 01a 000 000 000
000 000 000 000 000 000 000 00f 015 000 000 000
000 000 000 000 000 000 011 004 000 000 000 000
000 000 000 000 000 000 000 000 000 000 000 000
000 000 000 000 000 000 000 000 000 000 000 000
000 000 000 000 000 000 000 000 000 005 000 000
000 000 000 000 000 000 000 000 000 011 00a 000
000 000 000 000 000 000 000 000 00a 00f 000 000
000 000 000 000 000 000 000 015 005 000 000 000
000 000 000 000 000 000 000 009 000 000 000 000
000 000 000 000 000 000 000 000 000 000 000 000
000 000 000 000 000 000 000 000 000 000 000 000
