00c 00c 00c 00c 03a 137 18e 18d 0b1 041 00c 00c
00c 00c 00c 012 0c9 161 12e 075 08d 043 00c 00c
00c 00c 00c 091 0ff 0d3 05f 08a 053 00e 00c 00c
00c 00c 03a 121 120 079 079 077 077 02c 00c 00c
00c 00c 064 0d8 0ee 103 135 1ca 1e6 158 05d 00c
00c 01a 0ab 0b7 0ef 181 16d 159 1c6 1ae 0be 011
00c 038 0c8 0a0 17d 1b8 0d0 165 122 0ec 0c5 014
00c 027 072 137 162 13e 205 190 04f 06e 078 00f
00c 00c 05e 1e4 214 1c0 245 094 060 063 01b 00c
00c 00c 000 0cc 105 022 025 089 068 00f 00c 00c
00c 00c 004 000 000 011 031 03f 01c 00c 00c 00c
00c 00c 00c 00c 00c 00c 00c 00c 00c 00c 00c 00c
